TRT-7103-EntropyCalibration2
000_net: 3c010a14
001_convolutional: 3cc1e6c2
001_convolutional_bn: 3e3dae13
001_convolutional_lrelu: 3ddcdcb3
002_convolutional: 3ea885a3
002_convolutional_bn: 3d877b95
002_convolutional_lrelu: 3d487bb9
003_convolutional: 3e079126
003_convolutional_bn: 3e07c5a9
003_convolutional_lrelu: 3d8a81fc
004_convolutional: 3e0897f9
004_convolutional_bn: 3df6b69d
004_convolutional_lrelu: 3d74ba9f
005_shortcut: 3db98c07
006_convolutional: 3ea9ffa3
006_convolutional_bn: 3e049b0f
006_convolutional_lrelu: 3d6afafa
007_convolutional: 3da8e7ab
007_convolutional_bn: 3dac3f22
007_convolutional_lrelu: 3d1aad80
008_convolutional: 3d02ad5d
008_convolutional_bn: 3d3d3011
008_convolutional_lrelu: 3ce0b983
009_shortcut: 3d65222f
010_convolutional: 3e0361c9
010_convolutional_bn: 3e02d26d
010_convolutional_lrelu: 3d2d7316
011_convolutional: 3d627308
011_convolutional_bn: 3daebf2f
011_convolutional_lrelu: 3d14a813
012_shortcut: 3dacd17b
013_convolutional: 3e7e41a4
013_convolutional_bn: 3d934c2e
013_convolutional_lrelu: 3d1b9c4b
014_convolutional: 3d328d13
014_convolutional_bn: 3d9693da
014_convolutional_lrelu: 3d013a50
015_convolutional: 3d145f8c
015_convolutional_bn: 3d33f221
015_convolutional_lrelu: 3c77ff83
016_shortcut: 3d223726
017_convolutional: 3d79e1d7
017_convolutional_bn: 3d910272
017_convolutional_lrelu: 3d1818d7
018_convolutional: 3d2430e9
018_convolutional_bn: 3d179c24
018_convolutional_lrelu: 3cb59c76
019_shortcut: 3d3fad4e
020_convolutional: 3d6aa953
020_convolutional_bn: 3d971117
020_convolutional_lrelu: 3d0a4a66
021_convolutional: 3cf79e4a
021_convolutional_bn: 3d51252f
021_convolutional_lrelu: 3cb389a7
022_shortcut: 3d52790c
023_convolutional: 3d488983
023_convolutional_bn: 3d816e4c
023_convolutional_lrelu: 3d1cd21d
024_convolutional: 3d12341b
024_convolutional_bn: 3d3ce6f1
024_convolutional_lrelu: 3cbdf46e
025_shortcut: 3d65ade1
026_convolutional: 3d60a84b
026_convolutional_bn: 3d93a69c
026_convolutional_lrelu: 3d013552
027_convolutional: 3cee3507
027_convolutional_bn: 3d7180b6
027_convolutional_lrelu: 3cef1b2b
028_shortcut: 3d89433f
029_convolutional: 3d906be3
029_convolutional_bn: 3d8c0d4e
029_convolutional_lrelu: 3d0547d6
030_convolutional: 3cd3c986
030_convolutional_bn: 3dce28f8
030_convolutional_lrelu: 3d105248
031_shortcut: 3d980526
032_convolutional: 3d92a4fe
032_convolutional_bn: 3d75e748
032_convolutional_lrelu: 3cf0bf5e
033_convolutional: 3ce85e4c
033_convolutional_bn: 3d9fce65
033_convolutional_lrelu: 3d07d676
034_shortcut: 3da13385
035_convolutional: 3dbe8edc
035_convolutional_bn: 3d88b896
035_convolutional_lrelu: 3ce5aeae
036_convolutional: 3cbb48d8
036_convolutional_bn: 3da707a0
036_convolutional_lrelu: 3d23e7ce
037_shortcut: 3d935901
038_convolutional: 3e42c771
038_convolutional_bn: 3d9cc657
038_convolutional_lrelu: 3d052b4a
039_convolutional: 3ca36e5c
039_convolutional_bn: 3d798f57
039_convolutional_lrelu: 3d1a9a24
040_convolutional: 3d43e821
040_convolutional_bn: 3cf02fb2
040_convolutional_lrelu: 3c130957
041_shortcut: 3d037bf1
042_convolutional: 3cdc8f82
042_convolutional_bn: 3d86b281
042_convolutional_lrelu: 3d0c3612
043_convolutional: 3d110022
043_convolutional_bn: 3d2e627a
043_convolutional_lrelu: 3c9ca38c
044_shortcut: 3d06771f
045_convolutional: 3d06694e
045_convolutional_bn: 3d642037
045_convolutional_lrelu: 3cf20a07
046_convolutional: 3ca9f1fa
046_convolutional_bn: 3d417080
046_convolutional_lrelu: 3c920518
047_shortcut: 3d28afee
048_convolutional: 3d102eac
048_convolutional_bn: 3d685214
048_convolutional_lrelu: 3cdff0c6
049_convolutional: 3cb63557
049_convolutional_bn: 3d442ca2
049_convolutional_lrelu: 3ca82011
050_shortcut: 3d3162ce
051_convolutional: 3d175f15
051_convolutional_bn: 3d6b2831
051_convolutional_lrelu: 3cc9fd32
052_convolutional: 3cb834a6
052_convolutional_bn: 3d62567a
052_convolutional_lrelu: 3cca7ca7
053_shortcut: 3d61f317
054_convolutional: 3d3a818c
054_convolutional_bn: 3d8014b4
054_convolutional_lrelu: 3cb7e663
055_convolutional: 3cc295f2
055_convolutional_bn: 3d9f39c8
055_convolutional_lrelu: 3d058ab9
056_shortcut: 3d68d058
057_convolutional: 3d3ddc75
057_convolutional_bn: 3d6badad
057_convolutional_lrelu: 3cddc998
058_convolutional: 3c94d95a
058_convolutional_bn: 3d81d762
058_convolutional_lrelu: 3cfc320c
059_shortcut: 3d8b8048
060_convolutional: 3d8ae0c9
060_convolutional_bn: 3d62b696
060_convolutional_lrelu: 3ca0c33d
061_convolutional: 3c94812c
061_convolutional_bn: 3dbea4bb
061_convolutional_lrelu: 3cfeac50
062_shortcut: 3d4cad06
063_convolutional: 3e0b3199
063_convolutional_bn: 3d989a57
063_convolutional_lrelu: 3cf7c7b9
064_convolutional: 3ca153d8
064_convolutional_bn: 3d8c72d2
064_convolutional_lrelu: 3d091f48
065_convolutional: 3d367976
065_convolutional_bn: 3d5db8ab
065_convolutional_lrelu: 3c86a0a0
066_shortcut: 3cf710fb
067_convolutional: 3cca075e
067_convolutional_bn: 3d92712b
067_convolutional_lrelu: 3c96748b
068_convolutional: 3cb833f7
068_convolutional_bn: 3d4560cc
068_convolutional_lrelu: 3cab9b60
069_shortcut: 3cf987de
070_convolutional: 3cc1e53d
070_convolutional_bn: 3d695425
070_convolutional_lrelu: 3ccf51cd
071_convolutional: 3cc4349b
071_convolutional_bn: 3d49aaa2
071_convolutional_lrelu: 3cdc95d3
072_shortcut: 3d108112
073_convolutional: 3d15383b
073_convolutional_bn: 3d8b945b
073_convolutional_lrelu: 3c9fa1ee
074_convolutional: 3cb27484
074_convolutional_bn: 3d95f919
074_convolutional_lrelu: 3d0fa80c
075_shortcut: 3d4f6671
076_convolutional: 3d55c415
076_convolutional_bn: 3d90c0ab
076_convolutional_lrelu: 3d1481a8
077_convolutional: 3dafcaa8
077_convolutional_bn: 3d9a1eee
077_convolutional_lrelu: 3d0acd89
078_convolutional: 3e204e75
078_convolutional_bn: 3da289aa
078_convolutional_lrelu: 3d143dc3
079_maxpool: 3d143dc3
081_maxpool: 3d143dc3
083_maxpool: 3d143dc3
084_route: 3d143dc3
085_convolutional: 3d843c75
085_convolutional_bn: 3d9a33a2
085_convolutional_lrelu: 3d04fc19
086_convolutional: 3d7e805b
086_convolutional_bn: 3d7404de
086_convolutional_lrelu: 3d034c6e
087_convolutional: 3d436436
087_convolutional_bn: 3d54aef3
087_convolutional_lrelu: 3d015c07
088_convolutional: 3d7ed7d7
088_convolutional_bn: 3d8b5c9d
088_convolutional_lrelu: 3d1e87df
089_convolutional: 3e5e639a
092_convolutional: 3d4060ca
092_convolutional_bn: 3d8f5a9e
092_convolutional_lrelu: 3d2d5cac
093_upsample: 3d4cad06
094_route: 3d4cad06
095_convolutional: 3dcc68f9
095_convolutional_bn: 3d8521b9
095_convolutional_lrelu: 3d289238
096_convolutional: 3da93126
096_convolutional_bn: 3d87f05f
096_convolutional_lrelu: 3d182fbf
097_convolutional: 3d44121b
097_convolutional_bn: 3d839409
097_convolutional_lrelu: 3cdb454d
098_convolutional: 3d85bd57
098_convolutional_bn: 3d7da065
098_convolutional_lrelu: 3d04eaf6
099_convolutional: 3d5ccbb9
099_convolutional_bn: 3d773490
099_convolutional_lrelu: 3cd708ff
100_convolutional: 3d6feaea
100_convolutional_bn: 3d882839
100_convolutional_lrelu: 3d2e3ea8
101_convolutional: 3e45b03a
104_convolutional: 3d2f9c83
104_convolutional_bn: 3dba946d
104_convolutional_lrelu: 3d69e03b
105_upsample: 3d935901
106_route: 3d935901
107_convolutional: 3e161afe
107_convolutional_bn: 3d84f142
107_convolutional_lrelu: 3d0e35d7
108_convolutional: 3dc362e6
108_convolutional_bn: 3d7555e5
108_convolutional_lrelu: 3d00c803
109_convolutional: 3d4f4d7f
109_convolutional_bn: 3d86c3ff
109_convolutional_lrelu: 3d194172
110_convolutional: 3db35943
110_convolutional_bn: 3d7b99e9
110_convolutional_lrelu: 3d077a43
111_convolutional: 3dbfbfd5
111_convolutional_bn: 3d8f0c83
111_convolutional_lrelu: 3d180439
112_convolutional: 3de396c9
112_convolutional_bn: 3d9cc189
112_convolutional_lrelu: 3d471581
113_convolutional: 3e5c717d
(Unnamed Layer* 253) [PluginV2IOExt]_output_0: 3ef23e7d
(Unnamed Layer* 254) [PluginV2IOExt]_output_0: 3ee20891
(Unnamed Layer* 255) [PluginV2IOExt]_output_0: 3de21d3a
