TRT-7103-EntropyCalibration2
000_net: 3c010a14
001_convolutional: 3d1c8e6f
001_convolutional_bn: 3e4974f2
001_convolutional_lrelu: 3dc86a5b
002_convolutional: 3ece0986
002_convolutional_bn: 3e5586a9
002_convolutional_lrelu: 3db733ca
003_convolutional: 3f0e2de4
003_convolutional_bn: 3e60045a
003_convolutional_lrelu: 3da01dc1
004_route: 3d82b8ef
005_convolutional: 3e6609bc
005_convolutional_bn: 3e24dc23
005_convolutional_lrelu: 3dab644a
006_convolutional: 3e9b3825
006_convolutional_bn: 3e14e8af
006_convolutional_lrelu: 3dab644a
007_route: 3dab644a
008_convolutional: 3e5af597
008_convolutional_bn: 3e6056b7
008_convolutional_lrelu: 3da01dc1
009_route: 3da01dc1
010_maxpool: 3da01dc1
011_convolutional: 3f03ea95
011_convolutional_bn: 3e06fedb
011_convolutional_lrelu: 3d82f2db
012_route: 3d48c651
013_convolutional: 3e183f49
013_convolutional_bn: 3e05719a
013_convolutional_lrelu: 3d94d68b
014_convolutional: 3e4a5ee5
014_convolutional_bn: 3e031d6c
014_convolutional_lrelu: 3d94d68b
015_route: 3d94d68b
016_convolutional: 3e174a7d
016_convolutional_bn: 3e332af1
016_convolutional_lrelu: 3d82f2db
017_route: 3d82f2db
018_maxpool: 3d82f2db
019_convolutional: 3e6a4db7
019_convolutional_bn: 3dfa9047
019_convolutional_lrelu: 3d5576c5
020_route: 3d21b8b8
021_convolutional: 3dbccf7c
021_convolutional_bn: 3df2a13a
021_convolutional_lrelu: 3d8c2655
022_convolutional: 3e30f046
022_convolutional_bn: 3e06213a
022_convolutional_lrelu: 3d8c2655
023_route: 3d8c2655
024_convolutional: 3def9521
024_convolutional_bn: 3e5bb6dd
024_convolutional_lrelu: 3d5cf432
025_route: 3d5576c5
026_maxpool: 3d5576c5
027_convolutional: 3e0fb964
027_convolutional_bn: 3d904460
027_convolutional_lrelu: 3ce5e15a
028_convolutional: 3d2a22a6
028_convolutional_bn: 3daa0d77
028_convolutional_lrelu: 3cf3a519
029_convolutional: 3d8c79cd
029_convolutional_bn: 3dc4fed3
029_convolutional_lrelu: 3d538d7b
030_convolutional: 3e5a4f2e
033_convolutional: 3d2151e9
033_convolutional_bn: 3da734e6
033_convolutional_lrelu: 3d2f6b4e
034_upsample: 3d5cf432
035_route: 3d5cf432
036_convolutional: 3e08d1ff
036_convolutional_bn: 3d9e9b27
036_convolutional_lrelu: 3d31538c
037_convolutional: 3e46fd84
(Unnamed Layer* 76) [PluginV2IOExt]_output_0: 3efa468d
(Unnamed Layer* 77) [PluginV2IOExt]_output_0: 3ef222c6
