TRT-7103-EntropyCalibration2
000_net: 3c010a14
001_convolutional: 3caf6955
001_convolutional_bn: 3e068c22
001_convolutional_lrelu: 3d9f315c
002_convolutional: 3e9e5cba
002_convolutional_bn: 3dac3fc1
002_convolutional_lrelu: 3d23ae07
003_convolutional: 3e07e38b
003_convolutional_bn: 3df2b08f
003_convolutional_lrelu: 3d625e33
004_convolutional: 3db20ea3
004_convolutional_bn: 3dd5690a
004_convolutional_lrelu: 3d908773
005_shortcut: 3db8db93
006_convolutional: 3e96d31a
006_convolutional_bn: 3dd71b8e
006_convolutional_lrelu: 3d6b0087
007_convolutional: 3d80ca3f
007_convolutional_bn: 3d9a59ab
007_convolutional_lrelu: 3d0be6c5
008_convolutional: 3dd0c902
008_convolutional_bn: 3d41ad06
008_convolutional_lrelu: 3d09817f
009_shortcut: 3d6a5051
010_convolutional: 3df61395
010_convolutional_bn: 3dda058a
010_convolutional_lrelu: 3d2f1d07
011_convolutional: 3d60e65a
011_convolutional_bn: 3db28825
011_convolutional_lrelu: 3d55a1c7
012_shortcut: 3d92eb36
013_convolutional: 3e76215d
013_convolutional_bn: 3dadb84b
013_convolutional_lrelu: 3d19feb3
014_convolutional: 3d2e642b
014_convolutional_bn: 3d903514
014_convolutional_lrelu: 3d0c08a6
015_convolutional: 3ceab745
015_convolutional_bn: 3d3364e6
015_convolutional_lrelu: 3c9ec4fa
016_shortcut: 3d2244f8
017_convolutional: 3d7674cc
017_convolutional_bn: 3d9297cd
017_convolutional_lrelu: 3d158097
018_convolutional: 3d381760
018_convolutional_bn: 3d3836c7
018_convolutional_lrelu: 3cb3ed07
019_shortcut: 3d27aee4
020_convolutional: 3d5d677c
020_convolutional_bn: 3d88b4f1
020_convolutional_lrelu: 3d01ae43
021_convolutional: 3d1eb2b4
021_convolutional_bn: 3d5ff557
021_convolutional_lrelu: 3cad4ba3
022_shortcut: 3d438d1a
023_convolutional: 3d48a468
023_convolutional_bn: 3d786211
023_convolutional_lrelu: 3d17a3aa
024_convolutional: 3d19821e
024_convolutional_bn: 3d500fe5
024_convolutional_lrelu: 3c95a26c
025_shortcut: 3d5db913
026_convolutional: 3d734ce0
026_convolutional_bn: 3d9288af
026_convolutional_lrelu: 3cfaa739
027_convolutional: 3d050035
027_convolutional_bn: 3d5e24d9
027_convolutional_lrelu: 3cf1386d
028_shortcut: 3d87ba8a
029_convolutional: 3d91eb8f
029_convolutional_bn: 3d88c4c3
029_convolutional_lrelu: 3cf97d18
030_convolutional: 3cbfe7a9
030_convolutional_bn: 3d753009
030_convolutional_lrelu: 3ce76734
031_shortcut: 3da2b67a
032_convolutional: 3d8ae662
032_convolutional_bn: 3d6dc036
032_convolutional_lrelu: 3cf030df
033_convolutional: 3cc7b805
033_convolutional_bn: 3d9e9c78
033_convolutional_lrelu: 3d0141eb
034_shortcut: 3dadb1bd
035_convolutional: 3dc80287
035_convolutional_bn: 3d83ea9e
035_convolutional_lrelu: 3d16f697
036_convolutional: 3cca9a74
036_convolutional_bn: 3da5ba97
036_convolutional_lrelu: 3d13634a
037_shortcut: 3d9f6d7c
038_convolutional: 3e48a0d1
038_convolutional_bn: 3da31bad
038_convolutional_lrelu: 3cf4e5a9
039_convolutional: 3cb6eb19
039_convolutional_bn: 3d7bc781
039_convolutional_lrelu: 3d167ab9
040_convolutional: 3d37a246
040_convolutional_bn: 3d16fcfe
040_convolutional_lrelu: 3c188e32
041_shortcut: 3d094bd6
042_convolutional: 3cde602e
042_convolutional_bn: 3d74dd3e
042_convolutional_lrelu: 3d2fe82e
043_convolutional: 3d23234a
043_convolutional_bn: 3d2168ad
043_convolutional_lrelu: 3c9973ed
044_shortcut: 3d0d99ee
045_convolutional: 3d187446
045_convolutional_bn: 3d92f11d
045_convolutional_lrelu: 3cec68f7
046_convolutional: 3ccca87d
046_convolutional_bn: 3d1ac05f
046_convolutional_lrelu: 3ca53f46
047_shortcut: 3d2deb7e
048_convolutional: 3d123aea
048_convolutional_bn: 3d7b73ce
048_convolutional_lrelu: 3cdd621a
049_convolutional: 3cb7eec5
049_convolutional_bn: 3d285180
049_convolutional_lrelu: 3c9f1060
050_shortcut: 3d4183f2
051_convolutional: 3d169fa6
051_convolutional_bn: 3d6c5487
051_convolutional_lrelu: 3cdc27f5
052_convolutional: 3cafb7f1
052_convolutional_bn: 3d676b6d
052_convolutional_lrelu: 3cc669bf
053_shortcut: 3d58553c
054_convolutional: 3d4431ff
054_convolutional_bn: 3d77211d
054_convolutional_lrelu: 3cb60dd9
055_convolutional: 3ccbdd32
055_convolutional_bn: 3d9dacae
055_convolutional_lrelu: 3cd91763
056_shortcut: 3d6109ac
057_convolutional: 3d52dd55
057_convolutional_bn: 3d6c94d2
057_convolutional_lrelu: 3cee7561
058_convolutional: 3cb64c42
058_convolutional_bn: 3d6277d4
058_convolutional_lrelu: 3cf0c943
059_shortcut: 3d7f0354
060_convolutional: 3d92ea8a
060_convolutional_bn: 3d72094c
060_convolutional_lrelu: 3cac1c4d
061_convolutional: 3cabc7bb
061_convolutional_bn: 3dbdaf93
061_convolutional_lrelu: 3d0fe91c
062_shortcut: 3d676bdc
063_convolutional: 3e17162f
063_convolutional_bn: 3da49ac5
063_convolutional_lrelu: 3cd12d71
064_convolutional: 3ccb7e4a
064_convolutional_bn: 3d9f890e
064_convolutional_lrelu: 3cd6b1e3
065_convolutional: 3d51c337
065_convolutional_bn: 3d54a422
065_convolutional_lrelu: 3cad4d05
066_shortcut: 3cbd0480
067_convolutional: 3d25bf62
067_convolutional_bn: 3db19b82
067_convolutional_lrelu: 3cadce78
068_convolutional: 3cd4fc22
068_convolutional_bn: 3d3a8d52
068_convolutional_lrelu: 3c958a32
069_shortcut: 3cf85d2e
070_convolutional: 3d20476b
070_convolutional_bn: 3da8df54
070_convolutional_lrelu: 3caa0643
071_convolutional: 3ce7af07
071_convolutional_bn: 3d62d3c4
071_convolutional_lrelu: 3c933e24
072_shortcut: 3d2010ef
073_convolutional: 3d96e66c
073_convolutional_bn: 3dce8bc7
073_convolutional_lrelu: 3c9a4f55
074_convolutional: 3cbad12f
074_convolutional_bn: 3ddf4782
074_convolutional_lrelu: 3cf96e12
075_shortcut: 3d574761
076_convolutional: 3d73897b
076_convolutional_bn: 3d8ce858
076_convolutional_lrelu: 3d09d4cc
077_convolutional: 3d6a1055
077_convolutional_bn: 3d80fb64
077_convolutional_lrelu: 3d064bfc
078_convolutional: 3d836b76
078_convolutional_bn: 3d7cddf5
078_convolutional_lrelu: 3cd7e74a
079_convolutional: 3d33fd20
079_convolutional_bn: 3d4d6a5b
079_convolutional_lrelu: 3cffb82b
080_convolutional: 3d48acf5
080_convolutional_bn: 3d5990ea
080_convolutional_lrelu: 3ca7b18d
081_convolutional: 3d293608
081_convolutional_bn: 3d8243ac
081_convolutional_lrelu: 3d2a41ed
082_convolutional: 3e600ce3
085_convolutional: 3d15d9b4
085_convolutional_bn: 3d9d4e34
085_convolutional_lrelu: 3d0d6c79
086_upsample: 3d676bdc
087_route: 3d676bdc
088_convolutional: 3de3e9c6
088_convolutional_bn: 3d8bbec1
088_convolutional_lrelu: 3ce2f1fc
089_convolutional: 3d97111d
089_convolutional_bn: 3d7d6e5b
089_convolutional_lrelu: 3cbd02b2
090_convolutional: 3d5b221f
090_convolutional_bn: 3d5a38be
090_convolutional_lrelu: 3c9c1ce1
091_convolutional: 3d60f3f0
091_convolutional_bn: 3d739f0a
091_convolutional_lrelu: 3cbcc688
092_convolutional: 3d6e15cb
092_convolutional_bn: 3d858930
092_convolutional_lrelu: 3ca557a8
093_convolutional: 3d23daec
093_convolutional_bn: 3d8df75f
093_convolutional_lrelu: 3d2cdaed
094_convolutional: 3e532129
097_convolutional: 3d162469
097_convolutional_bn: 3da84cb3
097_convolutional_lrelu: 3d5f6229
098_upsample: 3d9f6d7c
099_route: 3d9f6d7c
100_convolutional: 3dfac67e
100_convolutional_bn: 3d866014
100_convolutional_lrelu: 3d0dce7d
101_convolutional: 3daa6cbe
101_convolutional_bn: 3d78cb1a
101_convolutional_lrelu: 3d0899ae
102_convolutional: 3d52238b
102_convolutional_bn: 3d81353d
102_convolutional_lrelu: 3cd2c022
103_convolutional: 3dba7093
103_convolutional_bn: 3d5f9b69
103_convolutional_lrelu: 3cdd97b4
104_convolutional: 3d7c40c4
104_convolutional_bn: 3d84edc8
104_convolutional_lrelu: 3d03fc1f
105_convolutional: 3dc5494f
105_convolutional_bn: 3da84277
105_convolutional_lrelu: 3d4c3fb5
106_convolutional: 3e82ccc7
(Unnamed Layer* 246) [PluginV2IOExt]_output_0: 3efa5428
(Unnamed Layer* 247) [PluginV2IOExt]_output_0: 3ee20e1c
(Unnamed Layer* 248) [PluginV2IOExt]_output_0: 3eea2ede
