TRT-7103-EntropyCalibration2
000_net: 3c010a14
001_convolutional: 3da6aff8
001_convolutional_bn: 3ea6a387
001_convolutional_softplus: 3e296d45
001_convolutional_tanh: 3c010a14
001_convolutional_mish: 3e17fbd6
002_convolutional: 3fb53648
002_convolutional_bn: 3e9383f9
002_convolutional_softplus: 3e2640de
002_convolutional_tanh: 3c010a14
002_convolutional_mish: 3e8d7fc8
003_convolutional: 3f1d0b4c
003_convolutional_bn: 3e569c6c
003_convolutional_softplus: 3de204c4
003_convolutional_tanh: 3c010a14
003_convolutional_mish: 3d8f6f42
005_convolutional: 3f12c8ba
005_convolutional_bn: 3e0d00c7
005_convolutional_softplus: 3dba9b4b
005_convolutional_tanh: 3c010a14
005_convolutional_mish: 3dab1388
006_convolutional: 3e938548
006_convolutional_bn: 3e6d6234
006_convolutional_softplus: 3e3874f1
006_convolutional_tanh: 3c010a14
006_convolutional_mish: 3dddcb43
007_convolutional: 3f2a4aa7
007_convolutional_bn: 3e5384a9
007_convolutional_softplus: 3df5c8f6
007_convolutional_tanh: 3c010a14
007_convolutional_mish: 3dda4c4a
008_shortcut: 3e528e26
009_convolutional: 3f01ddd0
009_convolutional_bn: 3e58618d
009_convolutional_softplus: 3de09ee4
009_convolutional_tanh: 3c010a14
009_convolutional_mish: 3d8f6f42
010_route: 3d8f6f42
011_convolutional: 3eef7ec3
011_convolutional_bn: 3e3cc2f2
011_convolutional_softplus: 3ddecbd2
011_convolutional_tanh: 3c010a14
011_convolutional_mish: 3da723ff
012_convolutional: 3f8e6c14
012_convolutional_bn: 3e175ef7
012_convolutional_softplus: 3db368a7
012_convolutional_tanh: 3c010a14
012_convolutional_mish: 3da47a3e
013_convolutional: 3ec71022
013_convolutional_bn: 3df7f8cd
013_convolutional_softplus: 3db10627
013_convolutional_tanh: 3c010a14
013_convolutional_mish: 3da03ba8
015_convolutional: 3ea96d61
015_convolutional_bn: 3d9d8cdd
015_convolutional_softplus: 3d8abb2d
015_convolutional_tanh: 3c021427
015_convolutional_mish: 3d804d31
016_convolutional: 3e318b56
016_convolutional_bn: 3da302a3
016_convolutional_softplus: 3d902621
016_convolutional_tanh: 3c01f3e7
016_convolutional_mish: 3d9e63bb
017_convolutional: 3e863e49
017_convolutional_bn: 3dbdb322
017_convolutional_softplus: 3d9893cf
017_convolutional_tanh: 3c021427
017_convolutional_mish: 3d392afd
018_shortcut: 3dd31aa3
019_convolutional: 3e4cac42
019_convolutional_bn: 3d9b0161
019_convolutional_softplus: 3d5f678f
019_convolutional_tanh: 3c061c33
019_convolutional_mish: 3d55644e
020_convolutional: 3e8c293c
020_convolutional_bn: 3e1c4b6a
020_convolutional_softplus: 3da6a2dd
020_convolutional_tanh: 3c010a14
020_convolutional_mish: 3da6a2dd
021_shortcut: 3e1adb45
022_convolutional: 3ed98343
022_convolutional_bn: 3e0a40cc
022_convolutional_softplus: 3db71b3f
022_convolutional_tanh: 3c010a14
022_convolutional_mish: 3da03ba8
023_route: 3da03ba8
024_convolutional: 3ee448cf
024_convolutional_bn: 3e1e7ef8
024_convolutional_softplus: 3d7bb1f9
024_convolutional_tanh: 3c010a14
024_convolutional_mish: 3d8607b8
025_convolutional: 3f08c3e7
025_convolutional_bn: 3df97e0e
025_convolutional_softplus: 3d97ba96
025_convolutional_tanh: 3c010a14
025_convolutional_mish: 3d38c530
026_convolutional: 3e8d62f0
026_convolutional_bn: 3dedaad6
026_convolutional_softplus: 3d93e66e
026_convolutional_tanh: 3c021427
026_convolutional_mish: 3d83b0d4
028_convolutional: 3e8973a3
028_convolutional_bn: 3dba83a4
028_convolutional_softplus: 3d994c28
028_convolutional_tanh: 3c010a14
028_convolutional_mish: 3d8240d3
029_convolutional: 3e21d9ce
029_convolutional_bn: 3dbe8121
029_convolutional_softplus: 3d717a22
029_convolutional_tanh: 3c010a14
029_convolutional_mish: 3d1141b8
030_convolutional: 3e9586c8
030_convolutional_bn: 3daf7179
030_convolutional_softplus: 3d4e4250
030_convolutional_tanh: 3c021427
030_convolutional_mish: 3d235725
031_shortcut: 3db5fe0f
032_convolutional: 3e4179ab
032_convolutional_bn: 3dc46552
032_convolutional_softplus: 3d78390e
032_convolutional_tanh: 3c01121e
032_convolutional_mish: 3d24ec37
033_convolutional: 3e43846b
033_convolutional_bn: 3dd3beb8
033_convolutional_softplus: 3d5bfe3f
033_convolutional_tanh: 3c03162a
033_convolutional_mish: 3d107ef6
034_shortcut: 3dbe8cd4
035_convolutional: 3e706786
035_convolutional_bn: 3e08b8e1
035_convolutional_softplus: 3d690deb
035_convolutional_tanh: 3c02141c
035_convolutional_mish: 3d24584c
036_convolutional: 3e30ec80
036_convolutional_bn: 3dc29a0a
036_convolutional_softplus: 3d5ee2b8
036_convolutional_tanh: 3c02141f
036_convolutional_mish: 3cd5180c
037_shortcut: 3dfa1fdd
038_convolutional: 3ea10c50
038_convolutional_bn: 3e12447d
038_convolutional_softplus: 3d5a0570
038_convolutional_tanh: 3c011223
038_convolutional_mish: 3d02a407
039_convolutional: 3e5baa4a
039_convolutional_bn: 3e065b91
039_convolutional_softplus: 3dcd6135
039_convolutional_tanh: 3c010a14
039_convolutional_mish: 3d15f581
040_shortcut: 3e26c262
041_convolutional: 3e8d42dc
041_convolutional_bn: 3ddb7633
041_convolutional_softplus: 3d4a02f0
041_convolutional_tanh: 3c0111e6
041_convolutional_mish: 3d119983
042_convolutional: 3dffd3ad
042_convolutional_bn: 3db72fe8
042_convolutional_softplus: 3d7bc282
042_convolutional_tanh: 3c021427
042_convolutional_mish: 3d38f535
043_shortcut: 3e253907
044_convolutional: 3ea7c803
044_convolutional_bn: 3dd24023
044_convolutional_softplus: 3d2ee27e
044_convolutional_tanh: 3c011209
044_convolutional_mish: 3cc691eb
045_convolutional: 3df677c6
045_convolutional_bn: 3df0ab1f
045_convolutional_softplus: 3d8ab5cf
045_convolutional_tanh: 3c010a14
045_convolutional_mish: 3d21fa8d
046_shortcut: 3e2b4214
047_convolutional: 3e9bf0c3
047_convolutional_bn: 3dc24ce9
047_convolutional_softplus: 3d48ddaf
047_convolutional_tanh: 3c011222
047_convolutional_mish: 3cec277c
048_convolutional: 3e067637
048_convolutional_bn: 3e175474
048_convolutional_softplus: 3db71eb1
048_convolutional_tanh: 3c010a14
048_convolutional_mish: 3da7e136
049_shortcut: 3e5afcbe
050_convolutional: 3ed4a1e6
050_convolutional_bn: 3dea922f
050_convolutional_softplus: 3d29bb2b
050_convolutional_tanh: 3c010a14
050_convolutional_mish: 3d0e1420
051_convolutional: 3e0be5b5
051_convolutional_bn: 3e187487
051_convolutional_softplus: 3dba801d
051_convolutional_tanh: 3c010a14
051_convolutional_mish: 3daafa9d
052_shortcut: 3e786f2a
053_convolutional: 3f251892
053_convolutional_bn: 3df5ec06
053_convolutional_softplus: 3dad6084
053_convolutional_tanh: 3c010a14
053_convolutional_mish: 3d83b0d4
054_route: 3d83b0d4
055_convolutional: 3e97dd13
055_convolutional_bn: 3e1ea207
055_convolutional_softplus: 3d4dc4f2
055_convolutional_tanh: 3c010a14
055_convolutional_mish: 3d39f7e7
056_convolutional: 3eb1fce8
056_convolutional_bn: 3dd683d4
056_convolutional_softplus: 3d8c3215
056_convolutional_tanh: 3c010a14
056_convolutional_mish: 3d0e6272
057_convolutional: 3e1c7a19
057_convolutional_bn: 3db82deb
057_convolutional_softplus: 3d7d9903
057_convolutional_tanh: 3c010a14
057_convolutional_mish: 3d160c32
059_convolutional: 3e506407
059_convolutional_bn: 3d9f9d99
059_convolutional_softplus: 3d7c9682
059_convolutional_tanh: 3c021411
059_convolutional_mish: 3d3af590
060_convolutional: 3db81469
060_convolutional_bn: 3db931a1
060_convolutional_softplus: 3d93914f
060_convolutional_tanh: 3c021427
060_convolutional_mish: 3d017403
061_convolutional: 3ebd1ec2
061_convolutional_bn: 3da85604
061_convolutional_softplus: 3d5dbe02
061_convolutional_tanh: 3c03161e
061_convolutional_mish: 3d226600
062_shortcut: 3d8e58d4
063_convolutional: 3dad8279
063_convolutional_bn: 3da76549
063_convolutional_softplus: 3d512597
063_convolutional_tanh: 3c011223
063_convolutional_mish: 3d25a0b9
064_convolutional: 3e175192
064_convolutional_bn: 3db03377
064_convolutional_softplus: 3d35ed9a
064_convolutional_tanh: 3c01114d
064_convolutional_mish: 3caf9999
065_shortcut: 3d7f109e
066_convolutional: 3e01908b
066_convolutional_bn: 3dc251b0
066_convolutional_softplus: 3d552ea7
066_convolutional_tanh: 3c0111fe
066_convolutional_mish: 3d11918e
067_convolutional: 3de36fdb
067_convolutional_bn: 3dab86db
067_convolutional_softplus: 3d347d29
067_convolutional_tanh: 3c011138
067_convolutional_mish: 3d02bdc7
068_shortcut: 3db379aa
069_convolutional: 3e06e991
069_convolutional_bn: 3e031644
069_convolutional_softplus: 3d3123db
069_convolutional_tanh: 3c011204
069_convolutional_mish: 3cc4695a
070_convolutional: 3e082370
070_convolutional_bn: 3df795f0
070_convolutional_softplus: 3d74e50b
070_convolutional_tanh: 3c031628
070_convolutional_mish: 3d5dc953
071_shortcut: 3dc06bd4
072_convolutional: 3e0f9dde
072_convolutional_bn: 3db1944b
072_convolutional_softplus: 3d4aaf62
072_convolutional_tanh: 3c0111dc
072_convolutional_mish: 3d0fd5ed
073_convolutional: 3dc66a6a
073_convolutional_bn: 3dccd1c3
073_convolutional_softplus: 3d834750
073_convolutional_tanh: 3c0213fc
073_convolutional_mish: 3d0fe4cb
074_shortcut: 3dcfbd61
075_convolutional: 3e15e4c1
075_convolutional_bn: 3db3383a
075_convolutional_softplus: 3d2b90b3
075_convolutional_tanh: 3c02113a
075_convolutional_mish: 3ceb5f10
076_convolutional: 3db6ba74
076_convolutional_bn: 3dd2e09e
076_convolutional_softplus: 3d741c69
076_convolutional_tanh: 3c010a14
076_convolutional_mish: 3d58cf6e
077_shortcut: 3dff3205
078_convolutional: 3e424805
078_convolutional_bn: 3db97a3c
078_convolutional_softplus: 3d2c6de4
078_convolutional_tanh: 3c010fa6
078_convolutional_mish: 3d0332bf
079_convolutional: 3dc29c00
079_convolutional_bn: 3debf2e9
079_convolutional_softplus: 3d707c08
079_convolutional_tanh: 3c010a14
079_convolutional_mish: 3d0e49e1
080_shortcut: 3e1abc32
081_convolutional: 3e6626a4
081_convolutional_bn: 3db644c5
081_convolutional_softplus: 3d1d1ed9
081_convolutional_tanh: 3c011197
081_convolutional_mish: 3cafa27f
082_convolutional: 3daec08c
082_convolutional_bn: 3e09a51a
082_convolutional_softplus: 3d915698
082_convolutional_tanh: 3c010a14
082_convolutional_mish: 3d8782a8
083_shortcut: 3e382b5d
084_convolutional: 3ec83556
084_convolutional_bn: 3dcdf03d
084_convolutional_softplus: 3d827ec2
084_convolutional_tanh: 3c021426
084_convolutional_mish: 3d160c32
085_route: 3d160c32
086_convolutional: 3e459e81
086_convolutional_bn: 3e135046
086_convolutional_softplus: 3d4a0725
086_convolutional_tanh: 3c010a14
086_convolutional_mish: 3d3b1017
087_convolutional: 3e598534
087_convolutional_bn: 3db52443
087_convolutional_softplus: 3d205b0d
087_convolutional_tanh: 3c010a14
087_convolutional_mish: 3d0e39a0
088_convolutional: 3da5c757
088_convolutional_bn: 3e0a0194
088_convolutional_softplus: 3d05a7db
088_convolutional_tanh: 3c010a14
088_convolutional_mish: 3d24e64e
090_convolutional: 3d8d17c5
090_convolutional_bn: 3da38f3a
090_convolutional_softplus: 3d4f2686
090_convolutional_tanh: 3c011223
090_convolutional_mish: 3cc704b3
091_convolutional: 3d28f40b
091_convolutional_bn: 3db158be
091_convolutional_softplus: 3d318655
091_convolutional_tanh: 3c010a14
091_convolutional_mish: 3d1fbc8b
092_convolutional: 3ea03076
092_convolutional_bn: 3dd7e12b
092_convolutional_softplus: 3d22360e
092_convolutional_tanh: 3c010f4a
092_convolutional_mish: 3cc77029
093_shortcut: 3d0712ee
094_convolutional: 3d67e7c1
094_convolutional_bn: 3ddd0718
094_convolutional_softplus: 3d2e4ee2
094_convolutional_tanh: 3c010a14
094_convolutional_mish: 3ced2ad6
095_convolutional: 3db228a1
095_convolutional_bn: 3e00baba
095_convolutional_softplus: 3d145200
095_convolutional_tanh: 3c0111d3
095_convolutional_mish: 3cb729c8
096_shortcut: 3d2e3725
097_convolutional: 3d94712a
097_convolutional_bn: 3dc951ef
097_convolutional_softplus: 3d34fad3
097_convolutional_tanh: 3c01121e
097_convolutional_mish: 3ca623ee
098_convolutional: 3dc946d4
098_convolutional_bn: 3e08652f
098_convolutional_softplus: 3d51ba2d
098_convolutional_tanh: 3c0315fb
098_convolutional_mish: 3cc6364b
099_shortcut: 3d65c687
100_convolutional: 3d9368a5
100_convolutional_bn: 3d9fe445
100_convolutional_softplus: 3d067d20
100_convolutional_tanh: 3c011126
100_convolutional_mish: 3cd85a6d
101_convolutional: 3dbe050e
101_convolutional_bn: 3dc5c1cc
101_convolutional_softplus: 3d7c1e4d
101_convolutional_tanh: 3c031629
101_convolutional_mish: 3d12d5fd
102_shortcut: 3d835161
103_convolutional: 3e1a388d
103_convolutional_bn: 3dcff4e9
103_convolutional_softplus: 3cef7e61
103_convolutional_tanh: 3c0111ac
103_convolutional_mish: 3d24e64e
104_route: 3d24e64e
105_convolutional: 3d378b5b
105_convolutional_bn: 3dde51b2
105_convolutional_softplus: 3d4f5d5c
105_convolutional_tanh: 3c021427
105_convolutional_mish: 3d11e14d
106_convolutional: 3dd1ccd1
106_convolutional_bn: 3db4909b
106_convolutional_lrelu: 3d3e9554
107_convolutional: 3e6bbcf6
107_convolutional_bn: 3d62fae8
107_convolutional_lrelu: 3d098c08
108_convolutional: 3e57167e
108_convolutional_bn: 3d69182f
108_convolutional_lrelu: 3d6315b8
109_maxpool: 3d6315b8
111_maxpool: 3d6315b8
113_maxpool: 3d6315b8
114_route: 3d6315b8
115_convolutional: 3e975b6c
115_convolutional_bn: 3e3ffa3e
115_convolutional_lrelu: 3d478d26
116_convolutional: 3e96cfcf
116_convolutional_bn: 3e1f5386
116_convolutional_lrelu: 3d2c2404
117_convolutional: 3e013937
117_convolutional_bn: 3dafc777
117_convolutional_lrelu: 3d406a0c
118_convolutional: 3e2472be
118_convolutional_bn: 3db75685
118_convolutional_lrelu: 3d61eb07
119_upsample: 3d8b686d
121_convolutional: 3dd3583e
121_convolutional_bn: 3df79627
121_convolutional_lrelu: 3d8b686d
122_route: 3d8b686d
123_convolutional: 3e78551f
123_convolutional_bn: 3e06f23b
123_convolutional_lrelu: 3d9afbda
124_convolutional: 3ec91fd2
124_convolutional_bn: 3dddea03
124_convolutional_lrelu: 3d7a7f34
125_convolutional: 3e357062
125_convolutional_bn: 3e105b62
125_convolutional_lrelu: 3d963d9e
126_convolutional: 3e9e68d8
126_convolutional_bn: 3dec07b5
126_convolutional_lrelu: 3d6f86d8
127_convolutional: 3e4ab9ce
127_convolutional_bn: 3df50bd8
127_convolutional_lrelu: 3d5df499
128_convolutional: 3e482c42
128_convolutional_bn: 3e1f8984
128_convolutional_lrelu: 3d9f61bf
129_upsample: 3da79f33
131_convolutional: 3dfe1df4
131_convolutional_bn: 3e04dae5
131_convolutional_lrelu: 3da79f33
132_route: 3da79f33
133_convolutional: 3ed4232f
133_convolutional_bn: 3e2a99f8
133_convolutional_lrelu: 3da4d9f2
134_convolutional: 3f0cba6a
134_convolutional_bn: 3e1fb5d2
134_convolutional_lrelu: 3d824bb3
135_convolutional: 3e8553b8
135_convolutional_bn: 3e31fd22
135_convolutional_lrelu: 3dc32006
136_convolutional: 3f16c6d8
136_convolutional_bn: 3df91ca0
136_convolutional_lrelu: 3dcbe87c
137_convolutional: 3ecf149b
137_convolutional_bn: 3e940813
137_convolutional_lrelu: 3daff33e
138_convolutional: 400b24ac
138_convolutional_bn: 3ded9b06
138_convolutional_lrelu: 3d9285a1
139_convolutional: 3eb67f3d
142_convolutional: 3eec4444
142_convolutional_bn: 3e064b3d
142_convolutional_lrelu: 3d5df499
143_route: 3d5df499
144_convolutional: 3e3782d6
144_convolutional_bn: 3dff93f4
144_convolutional_lrelu: 3d73aced
145_convolutional: 3ea2181a
145_convolutional_bn: 3dcc7e51
145_convolutional_lrelu: 3d3d80cb
146_convolutional: 3e339dcd
146_convolutional_bn: 3df741c2
146_convolutional_lrelu: 3da73e4f
147_convolutional: 3ec12716
147_convolutional_bn: 3dd63716
147_convolutional_lrelu: 3d348d02
148_convolutional: 3e5ee5c5
148_convolutional_bn: 3e407ba6
148_convolutional_lrelu: 3dc105c4
149_convolutional: 3f42a297
149_convolutional_bn: 3dc6953f
149_convolutional_lrelu: 3d2a1cb0
150_convolutional: 3eab8522
153_convolutional: 3e35e087
153_convolutional_bn: 3dc8f32d
153_convolutional_lrelu: 3d406a0c
154_route: 3d406a0c
155_convolutional: 3dcc13cd
155_convolutional_bn: 3d9bbd98
155_convolutional_lrelu: 3d0ae902
156_convolutional: 3ddb1c39
156_convolutional_bn: 3d82d2fd
156_convolutional_lrelu: 3cf31a37
157_convolutional: 3d7bd773
157_convolutional_bn: 3d998229
157_convolutional_lrelu: 3d0e6b9c
158_convolutional: 3dd09e57
158_convolutional_bn: 3d95eb83
158_convolutional_lrelu: 3cd82f0a
159_convolutional: 3d97cd8f
159_convolutional_bn: 3dcdaf39
159_convolutional_lrelu: 3d173dbd
160_convolutional: 3e5f62f2
160_convolutional_bn: 3d8dedb4
160_convolutional_lrelu: 3d2ee001
161_convolutional: 3e63c8d9
(Unnamed Layer* 506) [PluginV2IOExt]_output_0: 4016060c
(Unnamed Layer* 507) [PluginV2IOExt]_output_0: 3ef64102
(Unnamed Layer* 508) [PluginV2IOExt]_output_0: 3efa5428
